{
  "version": "1.0",
  "truncation": null,
  "padding": null,
  "added_tokens": [
    {
      "id": 0,
      "content": "<s>",
      "single_word": false,
      "lstrip": false,
      "rstrip": false,
      "normalized": false,
      "special": true
    },
    {
      "id": 1,
      "content": "<pad>",
      "single_word": false,
      "lstrip": false,
      "rstrip": false,
      "normalized": false,
      "special": true
    },
    {
      "id": 2,
      "content": "</s>",
      "single_word": false,
      "lstrip": false,
      "rstrip": false,
      "normalized": false,
      "special": true
    },
    {
      "id": 3,
      "content": "<unk>",
      "single_word": false,
      "lstrip": false,
      "rstrip": false,
      "normalized": false,
      "special": true
    }
  ],
  "normalizer": null,
  "pre_tokenizer": {
    "type": "ByteLevel",
    "add_prefix_space": false,
    "trim_offsets": true,
    "use_regex": true
  },
  "post_processor": {
    "type": "RobertaProcessing",
    "sep": ["</s>", 2],
    "cls": ["<s>", 0],
    "trim_offsets": true,
    "add_prefix_space": false
  },
  "decoder": null,
  "model": {
    "type": "BPE",
    "dropout": null,
    "unk_token": null,
    "continuing_subword_prefix": null,
    "end_of_word_suffix": null,
    "fuse_unk": false,
    "byte_fallback": false,
    "ignore_merges": false,
    "vocab": {
      "<s>": 0,
      "<pad>": 1,
      "</s>": 2,
      "<unk>": 3,
      "!": 4,
      "\"": 5,
      "#": 6,
      "$": 7,
      "%": 8,
      "&": 9,
      "'": 10,
      "(": 11,
      ")": 12,
      "*": 13,
      "+": 14,
      ",": 15,
      "-": 16,
      ".": 17,
      "/": 18,
      "0": 19,
      "1": 20,
      "2": 21,
      "3": 22,
      "4": 23,
      "5": 24,
      "6": 25,
      "7": 26,
      "8": 27,
      "9": 28,
      ":": 29,
      ";": 30,
      "<": 31,
      "=": 32,
      ">": 33,
      "?": 34,
      "@": 35,
      "A": 36,
      "B": 37,
      "C": 38,
      "D": 39,
      "E": 40,
      "F": 41,
      "G": 42,
      "H": 43,
      "I": 44,
      "J": 45,
      "K": 46,
      "L": 47,
      "M": 48,
      "N": 49,
      "O": 50,
      "P": 51,
      "Q": 52,
      "R": 53,
      "S": 54,
      "T": 55,
      "U": 56,
      "V": 57,
      "W": 58,
      "X": 59,
      "Y": 60,
      "Z": 61,
      "[": 62,
      "\\": 63,
      "]": 64,
      "^": 65,
      "_": 66,
      "`": 67,
      "a": 68,
      "b": 69,
      "c": 70,
      "d": 71,
      "e": 72,
      "f": 73,
      "g": 74,
      "h": 75,
      "i": 76,
      "j": 77,
      "k": 78,
      "l": 79,
      "m": 80,
      "n": 81,
      "o": 82,
      "p": 83,
      "q": 84,
      "r": 85,
      "s": 86,
      "t": 87,
      "u": 88,
      "v": 89,
      "w": 90,
      "x": 91,
      "y": 92,
      "z": 93,
      "{": 94,
      "|": 95,
      "}": 96,
      "~": 97,
      "¡": 98,
      "¢": 99,
      "£": 100,
      "¤": 101,
      "¥": 102,
      "¦": 103,
      "§": 104,
      "¨": 105,
      "©": 106,
      "ª": 107,
      "«": 108,
      "¬": 109,
      "®": 110,
      "¯": 111,
      "°": 112,
      "±": 113,
      "²": 114,
      "³": 115,
      "´": 116,
      "µ": 117,
      "¶": 118,
      "·": 119,
      "¸": 120,
      "¹": 121,
      "º": 122,
      "»": 123,
      "¼": 124,
      "½": 125,
      "¾": 126,
      "¿": 127,
      "À": 128,
      "Á": 129,
      "Â": 130,
      "Ã": 131,
      "Ä": 132,
      "Å": 133,
      "Æ": 134,
      "Ç": 135,
      "È": 136,
      "É": 137,
      "Ê": 138,
      "Ë": 139,
      "Ì": 140,
      "Í": 141,
      "Î": 142,
      "Ï": 143,
      "Ð": 144,
      "Ñ": 145,
      "Ò": 146,
      "Ó": 147,
      "Ô": 148,
      "Õ": 149,
      "Ö": 150,
      "×": 151,
      "Ø": 152,
      "Ù": 153,
      "Ú": 154,
      "Û": 155,
      "Ü": 156,
      "Ý": 157,
      "Þ": 158,
      "ß": 159,
      "à": 160,
      "á": 161,
      "â": 162,
      "ã": 163,
      "ä": 164,
      "å": 165,
      "æ": 166,
      "ç": 167,
      "è": 168,
      "é": 169,
      "ê": 170,
      "ë": 171,
      "ì": 172,
      "í": 173,
      "î": 174,
      "ï": 175,
      "ð": 176,
      "ñ": 177,
      "ò": 178,
      "ó": 179,
      "ô": 180,
      "õ": 181,
      "ö": 182,
      "÷": 183,
      "ø": 184,
      "ù": 185,
      "ú": 186,
      "û": 187,
      "ü": 188,
      "ý": 189,
      "þ": 190,
      "ÿ": 191,
      "Ā": 192,
      "ā": 193,
      "Ă": 194,
      "ă": 195,
      "Ą": 196,
      "ą": 197,
      "Ć": 198,
      "ć": 199,
      "Ĉ": 200,
      "ĉ": 201,
      "Ċ": 202,
      "ċ": 203,
      "Č": 204,
      "č": 205,
      "Ď": 206,
      "ď": 207,
      "Đ": 208,
      "đ": 209,
      "Ē": 210,
      "ē": 211,
      "Ĕ": 212,
      "ĕ": 213,
      "Ė": 214,
      "ė": 215,
      "Ę": 216,
      "ę": 217,
      "Ě": 218,
      "ě": 219,
      "Ĝ": 220,
      "ĝ": 221,
      "Ğ": 222,
      "ğ": 223,
      "Ġ": 224,
      "ġ": 225,
      "Ģ": 226,
      "ģ": 227,
      "Ĥ": 228,
      "ĥ": 229,
      "Ħ": 230,
      "ħ": 231,
      "Ĩ": 232,
      "ĩ": 233,
      "Ī": 234,
      "ī": 235,
      "Ĭ": 236,
      "ĭ": 237,
      "Į": 238,
      "į": 239,
      "İ": 240,
      "ı": 241,
      "Ĳ": 242,
      "ĳ": 243,
      "Ĵ": 244,
      "ĵ": 245,
      "Ķ": 246,
      "ķ": 247,
      "ĸ": 248,
      "Ĺ": 249,
      "ĺ": 250,
      "Ļ": 251,
      "ļ": 252,
      "Ľ": 253,
      "ľ": 254,
      "Ŀ": 255,
      "ŀ": 256,
      "Ł": 257,
      "ł": 258,
      "Ń": 259,
      "ĠĠ": 260,
      "ĠĠĠ": 261,
      "on": 262,
      "re": 263,
      "st": 264,
      "in": 265,
      "er": 266,
      "or": 267,
      "Ġc": 268,
      "Ġt": 269,
      "Ġ=": 270,
      "Ġ{": 271,
      "de": 272,
      "Ġa": 273,
      ");": 274,
      "Ġ}": 275,
      "Ġ'": 276,
      "ed": 277,
      "it": 278,
      "ĠĠĠĠĠ": 279,
      "at": 280,
      "Ġre": 281,
      "ar": 282,
      "ex": 283,
      "en": 284,
      "ro": 285,
      "ct": 286,
      "al": 287,
      "ing": 288,
      "Ġf": 289,
      "',": 290,
      "onst": 291,
      "Ġn": 292,
      "an": 293,
      "Ġs": 294,
      "Ġ(": 295,
      "le": 296,
      "pe": 297,
      "ad": 298,
      "un": 299,
      "am": 300,
      "ur": 301,
      "Ġconst": 302,
      "ion": 303,
      "Ġth": 304,
      "ch": 305,
      "ce": 306,
      "se": 307,
      "('": 308,
      "ode": 309,
      "str": 310,
      "Ġi": 311,
      "ort": 312,
      "Ġp": 313,
      "Ġb": 314,
      "port": 315,
      "ly": 316,
      "string": 317,
      ").": 318,
      "mb": 319,
      "Ġex": 320,
      "th": 321,
      "only": 322,
      "adonly": 323,
      "--": 324,
      "ge": 325,
      "Ġ=>": 326,
      "to": 327,
      "Ġm": 328,
      "im": 329,
      "Ġreadonly": 330,
      "Ġin": 331,
      "pect": 332,
      "ot": 333,
      "tr": 334,
      "Ġw": 335,
      "es": 336,
      "est": 337,
      "ĠĠĠĠĠĠĠ": 338,
      "Ġ*": 339,
      "Ġstring": 340,
      "rom": 341,
      "Ġexpect": 342,
      "Ġo": 343,
      "${": 344,
      "il": 345,
      "as": 346,
      "qu": 347,
      "Ġ});": 348,
      "ts": 349,
      "yn": 350,
      "urn": 351,
      "Ġthe": 352,
      "ame": 353,
      "ol": 354,
      "turn": 355,
      "Ġ[": 356,
      "pt": 357,
      "wa": 358,
      "Ġl": 359,
      "Ġreturn": 360,
      "..": 361,
      "rr": 362,
      "Ġas": 363,
      "is": 364,
      "wait": 365,
      "el": 366,
      "ore": 367,
      "ext": 368,
      "all": 369,
      "==": 370,
      "Ġan": 371,
      "ver": 372,
      "ath": 373,
      "ap": 374,
      "fi": 375,
      "ken": 376,
      "age": 377,
      "ta": 378,
      "Ġd": 379,
      "Ġfrom": 380,
      "odel": 381,
      "')": 382,
      "oc": 383,
      "Ġun": 384,
      "**": 385,
      "fin": 386,
      "Ġawait": 387,
      "rror": 388,
      "Error": 389,
      "id": 390,
      "ram": 391,
      "ter": 392,
      "/**": 393,
      "ul": 394,
      "ate": 395,
      "Ġ*/": 396,
      "';": 397,
      "');": 398,
      "our": 399,
      "Ġne": 400,
      "ann": 401,
      "ync": 402,
      "[]": 403,
      "mar": 404,
      "Ġr": 405,
      "export": 406,
      "Ġif": 407,
      "Ġis": 408,
      "ource": 409,
      "Ġtest": 410,
      "row": 411,
      "Ġ()": 412,
      "rammar": 413,
      "ile": 414,
      "ut": 415,
      "Ġ`": 416,
      "Ġg": 417,
      "In": 418,
      "ow": 419,
      "Ġv": 420,
      "ine": 421,
      "atch": 422,
      "mber": 423,
      "Ġand": 424,
      "em": 425,
      "fa": 426,
      "oken": 427,
      "Ġ?": 428,
      "Ġit": 429,
      "ions": 430,
      "----": 431,
      "ype": 432,
      "()": 433,
      "annel": 434,
      "ds": 435,
      "text": 436,
      "umber": 437,
      "dex": 438,
      "ent": 439,
      "ymb": 440,
      "ĠS": 441,
      "Ġde": 442,
      "Ġ===": 443,
      "ymbol": 444,
      "ect": 445,
      "iz": 446,
      "ke": 447,
      "sc": 448,
      "ue": 449,
      "orm": 450,
      "Ġ},": 451,
      "import": 452,
      "Be": 453,
      "ction": 454,
      "):": 455,
      "od": 456,
      "ri": 457,
      "defin": 458,
      "get": 459,
      "toBe": 460,
      "Ġnew": 461,
      "ab": 462,
      "ac": 463,
      "ir": 464,
      "ure": 465,
      "Ġst": 466,
      "Ġch": 467,
      "Ġnumber": 468,
      "),": 469,
      "...": 470,
      "defined": 471,
      "((": 472,
      "len": 473,
      "par": 474,
      "Ġ1": 475,
      "Ġe": 476,
      "ren": 477,
      "root": 478,
      "Ġfor": 479,
      "unction": 480,
      "Ġasync": 481,
      "Token": 482,
      "pl": 483,
      "stall": 484,
      "Ġtr": 485,
      "ith": 486,
      "Ġof": 487,
      "Ġundefined": 488,
      "const": 489,
      "ig": 490,
      "line": 491,
      "Ġ0": 492,
      "ĠP": 493,
      "Ġh": 494,
      "res": 495,
      "ptions": 496,
      "gth": 497,
      "up": 498,
      "us": 499,
      "ans": 500,
      "Ġthis": 501,
      "Ġmodel": 502,
      "ult": 503,
      "();": 504,
      "form": 505,
      "Ġ...": 506,
      "ansform": 507,
      "ach": 508,
      "ail": 509,
      "om": 510,
      "Ġ:": 511,
      "Ġ${": 512,
      "Ġcon": 513,
      "Ġ'.": 514,
      "Ġname": 515,
      "unt": 516,
      "gu": 517,
      "lo": 518,
      "name": 519,
      "po": 520,
      "path": 521,
      "sion": 522,
      "}`": 523,
      "ĠT": 524,
      "Ġ);": 525,
      "Ġtype": 526,
      "Ġnot": 527,
      "qual": 528,
      "ack": 529,
      "untim": 530,
      "Re": 531,
      "Ġse": 532,
      "Ġbe": 533,
      "Ġwh": 534,
      "Ġwith": 535,
      "key": 536,
      "Of": 537,
      "val": 538,
      "ĠĠĠĠĠĠĠĠĠ": 539,
      "Ġcar": 540,
      "ation": 541,
      "arch": 542,
      "Ġfile": 543,
      "Ġsource": 544,
      "pec": 545,
      "quer": 546,
      "ynta": 547,
      "yntax": 548,
      "];": 549,
      "der": 550,
      "ve": 551,
      "ĠW": 552,
      "Ġ|": 553,
      "Ġ};": 554,
      "Ġsymbol": 555,
      "Ġpath": 556,
      "mbed": 557,
      "terfa": 558,
      "own": 559,
      "izer": 560,
      "scri": 561,
      "ansformer": 562,
      "terface": 563,
      ")).": 564,
      "ag": 565,
      "cl": 566,
      "ire": 567,
      "md": 568,
      "model": 569,
      "ind": 570,
      "Ġto": 571,
      "Ġfunction": 572,
      "Ġpar": 573,
      "--------": 574,
      "Ġ'./": 575,
      "untime": 576,
      "query": 577,
      "([": 578,
      "Con": 579,
      "ax": 580,
      "ay": 581,
      "code": 582,
      "ep": 583,
      "map": 584,
      "ment": 585,
      "ĠD": 586,
      "ded": 587,
      "adline": 588,
      "fig": 589,
      ".#": 590,
      "ie": 591,
      "son": 592,
      "ule": 593,
      "ĠM": 594,
      "Ġsc": 595,
      "Ġpro": 596,
      "Ġby": 597,
      "Ġinstall": 598,
      "ector": 599,
      "ody": 600,
      "able": 601,
      "']": 602,
      "({": 603,
      "))": 604,
      "//": 605,
      "?:": 606,
      "Equal": 607,
      "File": 608,
      "Grammar": 609,
      "doc": 610,
      "ject": 611,
      "kn": 612,
      "node": 613,
      "oin": 614,
      "Ġ!": 615,
      "ory": 616,
      "ant": 617,
      "Ġthat": 618,
      "channel": 619,
      "app": 620,
      "Ġval": 621,
      "Ġ??": 622,
      "Tokens": 623,
      "con": 624,
      "et": 625,
      "join": 626,
      "oo": 627,
      "ql": 628,
      "sed": 629,
      "Ġ/**": 630,
      "ined": 631,
      "index": 632,
      "Ġcl": 633,
      "Ġ{}": 634,
      "Ġat": 635,
      "angu": 636,
      "und": 637,
      "Ġthrow": 638,
      "ces": 639,
      "Ġbu": 640,
      "Ġinterface": 641,
      "Ġoptions": 642,
      "ass": 643,
      "Ġ`${": 644,
      "Ġchannel": 645,
      "length": 646,
      "ache": 647,
      "ackage": 648,
      "anguage": 649,
      "?.": 650,
      "Node": 651,
      "act": 652,
      "be": 653,
      "he": 654,
      "spec": 655,
      "type": 656,
      "ust": 657,
      "uct": 658,
      "ĠC": 659,
      "Ġor": 660,
      "art": 661,
      "set": 662,
      "lens": 663,
      "known": 664,
      "Ġ!==": 665,
      "Ex": 666,
      "ase": 667,
      "grammar": 668,
      "ic": 669,
      "ise": 670,
      "ound": 671,
      "pm": 672,
      "sit": 673,
      "Ġ+": 674,
      "Ġon": 675,
      "Ġle": 676,
      "ree": 677,
      "ord": 678,
      "Ġres": 679,
      "Ġfail": 680,
      "Ġsh": 681,
      "toEqual": 682,
      "imit": 683,
      "Ġindex": 684,
      "romise": 685,
      "ild": 686,
      "Ġ[];": 687,
      "find": 688,
      "Ġgrammar": 689,
      "docs": 690,
      "apping": 691,
      "Ġvalue": 692,
      "En": 693,
      "Source": 694,
      "])": 695,
      "ace": 696,
      "dget": 697,
      "ifi": 698,
      "ll": 699
    },
    "merges": [
      ["Ġ", "Ġ"],
      ["ĠĠ", "Ġ"],
      ["o", "n"],
      ["r", "e"],
      ["s", "t"],
      ["i", "n"],
      ["e", "r"],
      ["o", "r"],
      ["Ġ", "c"],
      ["Ġ", "t"],
      ["Ġ", "="],
      ["Ġ", "{"],
      ["d", "e"],
      ["Ġ", "a"],
      [")", ";"],
      ["Ġ", "}"],
      ["Ġ", "'"],
      ["e", "d"],
      ["i", "t"],
      ["ĠĠ", "ĠĠĠ"],
      ["a", "t"],
      ["Ġ", "re"],
      ["a", "r"],
      ["e", "x"],
      ["e", "n"],
      ["r", "o"],
      ["c", "t"],
      ["a", "l"],
      ["in", "g"],
      ["Ġ", "f"],
      ["'", ","],
      ["on", "st"],
      ["Ġ", "n"],
      ["a", "n"],
      ["Ġ", "s"],
      ["Ġ", "("],
      ["l", "e"],
      ["p", "e"],
      ["a", "d"],
      ["u", "n"],
      ["a", "m"],
      ["u", "r"],
      ["Ġc", "onst"],
      ["i", "on"],
      ["Ġt", "h"],
      ["c", "h"],
      ["c", "e"],
      ["s", "e"],
      ["(", "'"],
      ["o", "de"],
      ["st", "r"],
      ["Ġ", "i"],
      ["or", "t"],
      ["Ġ", "p"],
      ["Ġ", "b"],
      ["p", "ort"],
      ["l", "y"],
      ["str", "ing"],
      [")", "."],
      ["m", "b"],
      ["Ġ", "ex"],
      ["t", "h"],
      ["on", "ly"],
      ["ad", "only"],
      ["-", "-"],
      ["g", "e"],
      ["Ġ=", ">"],
      ["t", "o"],
      ["Ġ", "m"],
      ["i", "m"],
      ["Ġre", "adonly"],
      ["Ġ", "in"],
      ["pe", "ct"],
      ["o", "t"],
      ["t", "r"],
      ["Ġ", "w"],
      ["e", "s"],
      ["e", "st"],
      ["ĠĠ", "ĠĠĠĠĠ"],
      ["Ġ", "*"],
      ["Ġ", "string"],
      ["ro", "m"],
      ["Ġex", "pect"],
      ["Ġ", "o"],
      ["$", "{"],
      ["i", "l"],
      ["a", "s"],
      ["q", "u"],
      ["Ġ}", ");"],
      ["t", "s"],
      ["y", "n"],
      ["ur", "n"],
      ["Ġth", "e"],
      ["am", "e"],
      ["o", "l"],
      ["t", "urn"],
      ["Ġ", "["],
      ["p", "t"],
      ["w", "a"],
      ["Ġ", "l"],
      ["Ġre", "turn"],
      [".", "."],
      ["r", "r"],
      ["Ġa", "s"],
      ["i", "s"],
      ["wa", "it"],
      ["e", "l"],
      ["o", "re"],
      ["ex", "t"],
      ["al", "l"],
      ["=", "="],
      ["Ġa", "n"],
      ["v", "er"],
      ["at", "h"],
      ["a", "p"],
      ["f", "i"],
      ["k", "en"],
      ["a", "ge"],
      ["t", "a"],
      ["Ġ", "d"],
      ["Ġf", "rom"],
      ["ode", "l"],
      ["'", ")"],
      ["o", "c"],
      ["Ġ", "un"],
      ["*", "*"],
      ["f", "in"],
      ["Ġa", "wait"],
      ["rr", "or"],
      ["E", "rror"],
      ["i", "d"],
      ["r", "am"],
      ["t", "er"],
      ["/", "**"],
      ["u", "l"],
      ["at", "e"],
      ["Ġ*", "/"],
      ["'", ";"],
      ["'", ");"],
      ["o", "ur"],
      ["Ġn", "e"],
      ["an", "n"],
      ["yn", "c"],
      ["[", "]"],
      ["m", "ar"],
      ["Ġ", "r"],
      ["ex", "port"],
      ["Ġi", "f"],
      ["Ġi", "s"],
      ["our", "ce"],
      ["Ġt", "est"],
      ["ro", "w"],
      ["Ġ(", ")"],
      ["ram", "mar"],
      ["i", "le"],
      ["u", "t"],
      ["Ġ", "`"],
      ["Ġ", "g"],
      ["I", "n"],
      ["o", "w"],
      ["Ġ", "v"],
      ["in", "e"],
      ["at", "ch"],
      ["mb", "er"],
      ["Ġan", "d"],
      ["e", "m"],
      ["f", "a"],
      ["o", "ken"],
      ["Ġ", "?"],
      ["Ġ", "it"],
      ["ion", "s"],
      ["--", "--"],
      ["y", "pe"],
      ["(", ")"],
      ["ann", "el"],
      ["d", "s"],
      ["t", "ext"],
      ["u", "mber"],
      ["de", "x"],
      ["en", "t"],
      ["y", "mb"],
      ["Ġ", "S"],
      ["Ġ", "de"],
      ["Ġ=", "=="],
      ["ymb", "ol"],
      ["e", "ct"],
      ["i", "z"],
      ["k", "e"],
      ["s", "c"],
      ["u", "e"],
      ["or", "m"],
      ["Ġ}", ","],
      ["im", "port"],
      ["B", "e"],
      ["ct", "ion"],
      [")", ":"],
      ["o", "d"],
      ["r", "i"],
      ["de", "fin"],
      ["ge", "t"],
      ["to", "Be"],
      ["Ġne", "w"],
      ["a", "b"],
      ["a", "c"],
      ["i", "r"],
      ["u", "re"],
      ["Ġ", "st"],
      ["Ġc", "h"],
      ["Ġn", "umber"],
      [")", ","],
      ["..", "."],
      ["defin", "ed"],
      ["(", "("],
      ["l", "en"],
      ["p", "ar"],
      ["Ġ", "1"],
      ["Ġ", "e"],
      ["re", "n"],
      ["ro", "ot"],
      ["Ġf", "or"],
      ["un", "ction"],
      ["Ġas", "ync"],
      ["T", "oken"],
      ["p", "l"],
      ["st", "all"],
      ["Ġt", "r"],
      ["it", "h"],
      ["Ġo", "f"],
      ["Ġun", "defined"],
      ["c", "onst"],
      ["i", "g"],
      ["l", "ine"],
      ["Ġ", "0"],
      ["Ġ", "P"],
      ["Ġ", "h"],
      ["re", "s"],
      ["pt", "ions"],
      ["g", "th"],
      ["u", "p"],
      ["u", "s"],
      ["an", "s"],
      ["Ġth", "is"],
      ["Ġm", "odel"],
      ["ul", "t"],
      ["(", ");"],
      ["f", "orm"],
      ["Ġ", "..."],
      ["ans", "form"],
      ["a", "ch"],
      ["a", "il"],
      ["o", "m"],
      ["Ġ", ":"],
      ["Ġ", "${"],
      ["Ġc", "on"],
      ["Ġ'", "."],
      ["Ġn", "ame"],
      ["un", "t"],
      ["g", "u"],
      ["l", "o"],
      ["n", "ame"],
      ["p", "o"],
      ["p", "ath"],
      ["s", "ion"],
      ["}", "`"],
      ["Ġ", "T"],
      ["Ġ", ");"],
      ["Ġt", "ype"],
      ["Ġn", "ot"],
      ["qu", "al"],
      ["ac", "k"],
      ["unt", "im"],
      ["R", "e"],
      ["Ġs", "e"],
      ["Ġb", "e"],
      ["Ġw", "h"],
      ["Ġw", "ith"],
      ["ke", "y"],
      ["O", "f"],
      ["v", "al"],
      ["ĠĠ", "ĠĠĠĠĠĠĠ"],
      ["Ġc", "ar"],
      ["at", "ion"],
      ["ar", "ch"],
      ["Ġf", "ile"],
      ["Ġs", "ource"],
      ["pe", "c"],
      ["qu", "er"],
      ["yn", "ta"],
      ["ynta", "x"],
      ["]", ";"],
      ["d", "er"],
      ["v", "e"],
      ["Ġ", "W"],
      ["Ġ", "|"],
      ["Ġ}", ";"],
      ["Ġs", "ymbol"],
      ["Ġp", "ath"],
      ["mb", "ed"],
      ["ter", "fa"],
      ["ow", "n"],
      ["iz", "er"],
      ["sc", "ri"],
      ["ansform", "er"],
      ["terfa", "ce"],
      [")", ")."],
      ["a", "g"],
      ["c", "l"],
      ["i", "re"],
      ["m", "d"],
      ["m", "odel"],
      ["in", "d"],
      ["Ġt", "o"],
      ["Ġf", "unction"],
      ["Ġp", "ar"],
      ["----", "----"],
      ["Ġ'.", "/"],
      ["untim", "e"],
      ["quer", "y"],
      ["(", "["],
      ["C", "on"],
      ["a", "x"],
      ["a", "y"],
      ["c", "ode"],
      ["e", "p"],
      ["m", "ap"],
      ["m", "ent"],
      ["Ġ", "D"],
      ["de", "d"],
      ["ad", "line"],
      ["fi", "g"],
      [".", "#"],
      ["i", "e"],
      ["s", "on"],
      ["u", "le"],
      ["Ġ", "M"],
      ["Ġs", "c"],
      ["Ġp", "ro"],
      ["Ġb", "y"],
      ["Ġin", "stall"],
      ["ect", "or"],
      ["od", "y"],
      ["ab", "le"],
      ["'", "]"],
      ["(", "{"],
      [")", ")"],
      ["/", "/"],
      ["?", ":"],
      ["E", "qual"],
      ["F", "ile"],
      ["G", "rammar"],
      ["d", "oc"],
      ["j", "ect"],
      ["k", "n"],
      ["n", "ode"],
      ["o", "in"],
      ["Ġ", "!"],
      ["or", "y"],
      ["an", "t"],
      ["Ġth", "at"],
      ["ch", "annel"],
      ["ap", "p"],
      ["Ġv", "al"],
      ["Ġ?", "?"],
      ["Token", "s"],
      ["c", "on"],
      ["e", "t"],
      ["j", "oin"],
      ["o", "o"],
      ["q", "l"],
      ["s", "ed"],
      ["Ġ", "/**"],
      ["in", "ed"],
      ["in", "dex"],
      ["Ġc", "l"],
      ["Ġ{", "}"],
      ["Ġa", "t"],
      ["an", "gu"],
      ["un", "d"],
      ["Ġth", "row"],
      ["ce", "s"],
      ["Ġb", "u"],
      ["Ġin", "terface"],
      ["Ġo", "ptions"],
      ["as", "s"],
      ["Ġ`", "${"],
      ["Ġch", "annel"],
      ["len", "gth"],
      ["ach", "e"],
      ["ack", "age"],
      ["angu", "age"],
      ["?", "."],
      ["N", "ode"],
      ["a", "ct"],
      ["b", "e"],
      ["h", "e"],
      ["s", "pec"],
      ["t", "ype"],
      ["u", "st"],
      ["u", "ct"],
      ["Ġ", "C"],
      ["Ġ", "or"],
      ["ar", "t"],
      ["se", "t"],
      ["len", "s"],
      ["kn", "own"],
      ["Ġ!", "=="],
      ["E", "x"],
      ["a", "se"],
      ["g", "rammar"],
      ["i", "c"],
      ["i", "se"],
      ["o", "und"],
      ["p", "m"],
      ["s", "it"],
      ["Ġ", "+"],
      ["Ġ", "on"],
      ["Ġ", "le"],
      ["re", "e"],
      ["or", "d"],
      ["Ġre", "s"],
      ["Ġf", "ail"],
      ["Ġs", "h"],
      ["to", "Equal"],
      ["im", "it"],
      ["Ġin", "dex"],
      ["rom", "ise"],
      ["il", "d"],
      ["Ġ[", "];"],
      ["fin", "d"],
      ["Ġg", "rammar"],
      ["doc", "s"],
      ["app", "ing"],
      ["Ġval", "ue"],
      ["E", "n"],
      ["S", "ource"],
      ["]", ")"],
      ["a", "ce"],
      ["d", "get"],
      ["i", "fi"],
      ["l", "l"]
    ]
  }
}
