{
  "version": "1.0",
  "truncation": null,
  "padding": null,
  "added_tokens": [
    {
      "id": 0,
      "content": "[PAD]",
      "single_word": false,
      "lstrip": false,
      "rstrip": false,
      "normalized": false,
      "special": true
    },
    {
      "id": 1,
      "content": "[UNK]",
      "single_word": false,
      "lstrip": false,
      "rstrip": false,
      "normalized": false,
      "special": true
    },
    {
      "id": 2,
      "content": "[CLS]",
      "single_word": false,
      "lstrip": false,
      "rstrip": false,
      "normalized": false,
      "special": true
    },
    {
      "id": 3,
      "content": "[SEP]",
      "single_word": false,
      "lstrip": false,
      "rstrip": false,
      "normalized": false,
      "special": true
    },
    {
      "id": 4,
      "content": "[MASK]",
      "single_word": false,
      "lstrip": false,
      "rstrip": false,
      "normalized": false,
      "special": true
    }
  ],
  "normalizer": {
    "type": "BertNormalizer",
    "clean_text": true,
    "handle_chinese_chars": true,
    "strip_accents": null,
    "lowercase": false
  },
  "pre_tokenizer": {
    "type": "BertPreTokenizer"
  },
  "post_processor": {
    "type": "TemplateProcessing",
    "single": [
      {
        "SpecialToken": {
          "id": "[CLS]",
          "type_id": 0
        }
      },
      {
        "Sequence": {
          "id": "A",
          "type_id": 0
        }
      },
      {
        "SpecialToken": {
          "id": "[SEP]",
          "type_id": 0
        }
      }
    ],
    "pair": [
      {
        "Sequence": {
          "id": "A",
          "type_id": 0
        }
      },
      {
        "Sequence": {
          "id": "B",
          "type_id": 1
        }
      }
    ],
    "special_tokens": {
      "[CLS]": {
        "id": "[CLS]",
        "ids": [2],
        "tokens": ["[CLS]"]
      },
      "[SEP]": {
        "id": "[SEP]",
        "ids": [3],
        "tokens": ["[SEP]"]
      }
    }
  },
  "decoder": null,
  "model": {
    "type": "WordPiece",
    "unk_token": "[UNK]",
    "continuing_subword_prefix": "##",
    "max_input_chars_per_word": 100,
    "vocab": {
      "[PAD]": 0,
      "[UNK]": 1,
      "[CLS]": 2,
      "[SEP]": 3,
      "[MASK]": 4,
      "!": 5,
      "\"": 6,
      "$": 7,
      "&": 8,
      "'": 9,
      "(": 10,
      ")": 11,
      "*": 12,
      "+": 13,
      ",": 14,
      "-": 15,
      ".": 16,
      "/": 17,
      "0": 18,
      "1": 19,
      "2": 20,
      "3": 21,
      "4": 22,
      "5": 23,
      "6": 24,
      "7": 25,
      "8": 26,
      "9": 27,
      ":": 28,
      ";": 29,
      "<": 30,
      "=": 31,
      ">": 32,
      "?": 33,
      "A": 34,
      "B": 35,
      "C": 36,
      "D": 37,
      "E": 38,
      "F": 39,
      "G": 40,
      "H": 41,
      "I": 42,
      "J": 43,
      "L": 44,
      "M": 45,
      "N": 46,
      "O": 47,
      "P": 48,
      "R": 49,
      "S": 50,
      "T": 51,
      "U": 52,
      "V": 53,
      "W": 54,
      "X": 55,
      "Y": 56,
      "Z": 57,
      "[": 58,
      "]": 59,
      "^": 60,
      "_": 61,
      "`": 62,
      "a": 63,
      "b": 64,
      "c": 65,
      "d": 66,
      "e": 67,
      "f": 68,
      "g": 69,
      "h": 70,
      "i": 71,
      "j": 72,
      "k": 73,
      "l": 74,
      "m": 75,
      "n": 76,
      "o": 77,
      "p": 78,
      "q": 79,
      "r": 80,
      "s": 81,
      "t": 82,
      "u": 83,
      "v": 84,
      "w": 85,
      "x": 86,
      "y": 87,
      "z": 88,
      "{": 89,
      "|": 90,
      "}": 91,
      "ç": 92,
      "é": 93,
      "ï": 94,
      "の": 95,
      "キ": 96,
      "ス": 97,
      "テ": 98,
      "ト": 99,
      "世": 100,
      "你": 101,
      "好": 102,
      "日": 103,
      "本": 104,
      "界": 105,
      "語": 106,
      "##u": 107,
      "##m": 108,
      "##b": 109,
      "##e": 110,
      "##r": 111,
      "##s": 112,
      "##l": 113,
      "##a": 114,
      "##t": 115,
      "##i": 116,
      "##g": 117,
      "##h": 118,
      "##N": 119,
      "##F": 120,
      "##I": 121,
      "##T": 122,
      "##Y": 123,
      "##c": 124,
      "##k": 125,
      "##n": 126,
      "##o": 127,
      "##x": 128,
      "##p": 129,
      "##d": 130,
      "##0": 131,
      "##O": 132,
      "##f": 133,
      "##y": 134,
      "##z": 135,
      "##C": 136,
      "##q": 137,
      "##R": 138,
      "##A": 139,
      "##M": 140,
      "##E": 141,
      "##w": 142,
      "##j": 143,
      "##V": 144,
      "##ç": 145,
      "##v": 146,
      "##X": 147,
      "##P": 148,
      "##D": 149,
      "##L": 150,
      "##U": 151,
      "##B": 152,
      "##S": 153,
      "##G": 154,
      "##é": 155,
      "##9": 156,
      "##H": 157,
      "##3": 158,
      "##テ": 159,
      "##キ": 160,
      "##ス": 161,
      "##ト": 162,
      "##J": 163,
      "##2": 164,
      "##ï": 165,
      "##6": 166,
      "##4": 167,
      "##or": 168,
      "##on": 169,
      "##in": 170,
      "##rr": 171,
      "##er": 172,
      "##ed": 173,
      "##rror": 174,
      "##al": 175,
      "##st": 176,
      "re": 177,
      "##ur": 178,
      "##ct": 179,
      "##at": 180,
      "th": 181,
      "con": 182,
      "##xp": 183,
      "##ad": 184,
      "##Error": 185,
      "##se": 186,
      "exp": 187,
      "##ect": 188,
      "##de": 189,
      "##me": 190,
      "to": 191,
      "##it": 192,
      "##ion": 193,
      "##ro": 194,
      "##es": 195,
      "##ag": 196,
      "##ing": 197,
      "##ode": 198,
      "ca": 199,
      "##il": 200,
      "##ort": 201,
      "const": 202,
      "expect": 203,
      "##en": 204,
      "##xt": 205,
      "##ead": 206,
      "##ation": 207,
      "##ut": 208,
      "##use": 209,
      "##ig": 210,
      "##ine": 211,
      "##line": 212,
      "##eadline": 213,
      "in": 214,
      "##ail": 215,
      "##ce": 216,
      "##ailur": 217,
      "##ext": 218,
      "##tr": 219,
      "un": 220,
      "##per": 221,
      "##ue": 222,
      "##row": 223,
      "##ly": 224,
      "##an": 225,
      "ne": 226,
      "cause": 227,
      "##tring": 228,
      "the": 229,
      "##ign": 230,
      "ti": 231,
      "read": 232,
      "##ar": 233,
      "##text": 234,
      "##only": 235,
      "##alue": 236,
      "##peration": 237,
      "##ali": 238,
      "##urn": 239,
      "##ignal": 240,
      "failur": 241,
      "string": 242,
      "readonly": 243,
      "##turn": 244,
      "return": 245,
      "error": 246,
      "##ir": 247,
      "context": 248,
      "time": 249,
      "te": 250,
      "##un": 251,
      "##out": 252,
      "test": 253,
      "##ll": 254,
      "##is": 255,
      "new": 256,
      "an": 257,
      "throw": 258,
      "value": 259,
      "##son": 260,
      "operation": 261,
      "Deadline": 262,
      "signal": 263,
      "##et": 264,
      "##ol": 265,
      "##Rag": 266,
      "##odeRag": 267,
      "##odeRagError": 268,
      "In": 269,
      "as": 270,
      "##bort": 271,
      "##age": 272,
      "Inv": 273,
      "code": 274,
      "##Ms": 275,
      "##Be": 276,
      "toBe": 277,
      "##mb": 278,
      "timeout": 279,
      "is": 280,
      "##ch": 281,
      "##mit": 282,
      "##nt": 283,
      "##ume": 284,
      "##ow": 285,
      "##ined": 286,
      "failure": 287,
      "##ument": 288,
      "CodeLensError": 289,
      "deadline": 290,
      "na": 291,
      "of": 292,
      "this": 293,
      "timeoutMs": 294,
      "Error": 295,
      "wh": 296,
      "##em": 297,
      "##rg": 298,
      "##imit": 299,
      "##edError": 300,
      "##rgument": 301,
      "nu": 302,
      "se": 303,
      "##as": 304,
      "##ain": 305,
      "##iv": 306,
      "##fined": 307,
      "##ver": 308,
      "##mber": 309,
      "su": 310,
      "##ped": 311,
      "##ject": 312,
      "##urs": 313,
      "export": 314,
      "init": 315,
      "and": 316,
      "seen": 317,
      "##ot": 318,
      "##eri": 319,
      "##defined": 320,
      "##rom": 321,
      "undefined": 322,
      "##alid": 323,
      "thrown": 324,
      "Invalid": 325,
      "##ursor": 326,
      "it": 327,
      "##ib": 328,
      "##Argument": 329,
      "##ate": 330,
      "##ess": 331,
      "##ance": 332,
      "##eriali": 333,
      "InvalidArgument": 334,
      "InvalidArgumentError": 335,
      "if": 336,
      "limit": 337,
      "##ec": 338,
      "##sy": 339,
      "##cr": 340,
      "name": 341,
      "##bsy": 342,
      "##stem": 343,
      "##erializ": 344,
      "##bsystem": 345,
      "des": 346,
      "mess": 347,
      "ty": 348,
      "##re": 349,
      "##le": 350,
      "##ap": 351,
      "##ds": 352,
      "descr": 353,
      "message": 354,
      "for": 355,
      "##eError": 356,
      "##Th": 357,
      "##port": 358,
      "##ON": 359,
      "##Con": 360,
      "##int": 361,
      "##stance": 362,
      "number": 363,
      "##ass": 364,
      "describ": 365,
      "cl": 366,
      "from": 367,
      "wr": 368,
      "##kn": 369,
      "##OR": 370,
      "##SON": 371,
      "##all": 372,
      "##ction": 373,
      "unkn": 374,
      "failures": 375,
      "##own": 376,
      "##Throw": 377,
      "describe": 378,
      "unknown": 379,
      "bu": 380,
      "fun": 381,
      "ke": 382,
      "not": 383,
      "##ul": 384,
      "##bject": 385,
      "##get": 386,
      "##Failur": 387,
      "##of": 388,
      "##xce": 389,
      "rea": 390,
      "##atch": 391,
      "##ent": 392,
      "##art": 393,
      "errors": 394,
      "##ired": 395,
      "subsystem": 396,
      "function": 397,
      "Abort": 398,
      "Th": 399,
      "hint": 400,
      "run": 401,
      "##th": 402,
      "##In": 403,
      "##nc": 404,
      "##dget": 405,
      "##Cursor": 406,
      "##Exce": 407,
      "budget": 408,
      "on": 409,
      "ts": 410,
      "wit": 411,
      "##ian": 412,
      "##iol": 413,
      "that": 414,
      "toJ": 415,
      "##arian": 416,
      "DeadlineExce": 417,
      "##aller": 418,
      "##FailureError": 419,
      "with": 420,
      "##ariant": 421,
      "DeadlineExceed": 422,
      "im": 423,
      "out": 424,
      "page": 425,
      "sa": 426,
      "st": 427,
      "##ic": 428,
      "##pt": 429,
      "##ore": 430,
      "##ord": 431,
      "res": 432,
      "case": 433,
      "instance": 434,
      "class": 435,
      "wrap": 436,
      "##iolation": 437,
      "DeadlineExceededError": 438,
      "instanceof": 439,
      "Operation": 440,
      "Un": 441,
      "caller": 442,
      "lo": 443,
      "or": 444,
      "pag": 445,
      "so": 446,
      "##uct": 447,
      "##ep": 448,
      "##ef": 449,
      "##ab": 450,
      "##ause": 451,
      "##ise": 452,
      "##ync": 453,
      "##Violation": 454,
      "##ve": 455,
      "##Signal": 456,
      "toThrow": 457,
      "can": 458,
      "async": 459,
      "Invariant": 460,
      "##ive": 461,
      "##Cont": 462,
      "AbortSignal": 463,
      "wrapped": 464,
      "##ViolationError": 465,
      "InvariantViolationError": 466,
      "Json": 467,
      "abort": 468,
      "ch": 469,
      "core": 470,
      "ext": 471,
      "json": 472,
      "serializ": 473,
      "tr": 474,
      "wor": 475,
      "##exp": 476,
      "##ait": 477,
      "##pe": 478,
      "##yError": 479,
      "##Abort": 480,
      "##Value": 481,
      "##ected": 482,
      "##roll": 483,
      "##odeCursor": 484,
      "##ends": 485,
      "##ird": 486,
      "##ole": 487,
      "typed": 488,
      "##ult": 489,
      "reason": 490,
      "import": 491,
      "OperationAbort": 492,
      "Unexp": 493,
      "JsonValue": 494,
      "extends": 495,
      "work": 496,
      "##roller": 497,
      "OperationAbortedError": 498,
      "Unexpected": 499,
      "COR": 500,
      "JSON": 501,
      "Serializ": 502,
      "cu": 503,
      "cursor": 504,
      "catch": 505,
      "def": 506,
      "fin": 507,
      "fal": 508,
      "##us": 509,
      "##ruct": 510,
      "##gg": 511,
      "##gate": 512,
      "##Cause": 513,
      "##qu": 514,
      "##rrent": 515,
      "reject": 516,
      "##ile": 517,
      "construct": 518,
      "ErrorIn": 519,
      "##ecord": 520,
      "type": 521,
      "##regate": 522,
      "##able": 523,
      "UnexpectedFailureError": 524,
      "CORE": 525,
      "current": 526,
      "false": 527,
      "##ggregate": 528,
      "constructor": 529,
      "ErrorInit": 530,
      "Nu": 531,
      "aw": 532,
      "all": 533,
      "by": 534,
      "non": 535,
      "op": 536,
      "##main": 537,
      "##ak": 538,
      "##if": 539,
      "##IT": 540,
      "##TE": 541,
      "##cl": 542,
      "##op": 543,
      "##CodeLensError": 544,
      "##Equ": 545,
      "##inate": 546,
      "##erf": 547,
      "report": 548,
      "remain": 549,
      "expired": 550,
      "toCont": 551,
      "toCodeLensError": 552,
      "toEqu": 553,
      "##ions": 554,
      "tim": 555,
      "##olve": 556,
      "##ched": 557,
      "null": 558,
      "##very": 559,
      "super": 560,
      "keep": 561,
      "toJson": 562,
      "resolve": 563,
      "paginate": 564,
      "chain": 565,
      "Number": 566,
      "await": 567,
      "remaining": 568,
      "toContain": 569,
      "toEqual": 570,
      "10": 571,
      "Record": 572,
      "are": 573,
      "be": 574,
      "cy": 575,
      "cut": 576,
      "dec": 577,
      "every": 578,
      "object": 579,
      "text": 580,
      "##troller": 581,
      "##gth": 582,
      "##If": 583,
      "##os": 584,
      "##oun": 585,
      "##Match": 586,
      "##Exp": 587,
      "##Part": 588,
      "##LT": 589,
      "##ULT": 590,
      "##orm": 591,
      "controller": 592,
      "toMatch": 593,
      "##ength": 594,
      "never": 595,
      "stringif": 596,
      "throwIf": 597,
      "ErrorCon": 598,
      "whole": 599,
      "item": 600,
      "numbers": 601,
      "Third": 602,
      "start": 603,
      "keeps": 604,
      "decodeCursor": 605,
      "##ound": 606,
      "##Expired": 607,
      "##PartyError": 608,
      "stringify": 609,
      "throwIfExpired": 610,
      "ErrorContext": 611,
      "ThirdPartyError": 612,
      "IN": 613,
      "Prom": 614,
      "RE": 615,
      "We": 616,
      "ab": 617,
      "bad": 618,
      "big": 619,
      "do": 620,
      "dur": 621,
      "ow": 622,
      "par": 623,
      "##ever": 624,
      "##ser": 625,
      "##ay": 626,
      "##act": 627,
      "##ase": 628,
      "##ault": 629,
      "##id": 630,
      "##ck": 631,
      "##pl": 632,
      "##Of": 633,
      "##Object": 634,
      "##Limit": 635,
      "##Set": 636,
      "##ong": 637,
      "##ere": 638,
      "rece": 639,
      "##ath": 640,
      "expir": 641,
      "##ite": 642,
      "int": 643,
      "##cell": 644,
      "unt": 645,
      "signals": 646,
      "toBeIn": 647,
      "while": 648,
      "##ived": 649,
      "its": 650,
      "##stanceOf": 651,
      "##Throwable": 652,
      "describeThrowable": 653,
      "reached": 654,
      "##thing": 655,
      "toJSON": 656,
      "say": 657,
      "loop": 658,
      "cancell": 659,
      "aborted": 660,
      "true": 661,
      "default": 662,
      "##akSet": 663,
      "##clic": 664,
      "timer": 665,
      "resolveLimit": 666,
      "remainingMs": 667,
      "cyclic": 668,
      "toMatchObject": 669,
      "started": 670,
      "Promise": 671,
      "WeakSet": 672,
      "during": 673,
      "own": 674,
      "parse": 675,
      "received": 676,
      "toBeInstanceOf": 677,
      "42": 678,
      "Aggregate": 679,
      "DE": 680,
      "Su": 681,
      "ad": 682,
      "argument": 683,
      "aggregate": 684,
      "bo": 685,
      "cir": 686,
      "has": 687,
      "length": 688,
      "map": 689,
      "no": 690,
      "next": 691,
      "now": 692,
      "pr": 693,
      "pa": 694,
      "pass": 695,
      "pus": 696,
      "perf": 697,
      "path": 698,
      "rag": 699
    }
  }
}
