{
  "version": "1.0",
  "truncation": null,
  "padding": null,
  "added_tokens": [
    {
      "id": 0,
      "content": "[PAD]",
      "single_word": false,
      "lstrip": false,
      "rstrip": false,
      "normalized": false,
      "special": true
    },
    {
      "id": 1,
      "content": "[UNK]",
      "single_word": false,
      "lstrip": false,
      "rstrip": false,
      "normalized": false,
      "special": true
    },
    {
      "id": 2,
      "content": "[CLS]",
      "single_word": false,
      "lstrip": false,
      "rstrip": false,
      "normalized": false,
      "special": true
    },
    {
      "id": 3,
      "content": "[SEP]",
      "single_word": false,
      "lstrip": false,
      "rstrip": false,
      "normalized": false,
      "special": true
    },
    {
      "id": 4,
      "content": "[MASK]",
      "single_word": false,
      "lstrip": false,
      "rstrip": false,
      "normalized": false,
      "special": true
    }
  ],
  "normalizer": {
    "type": "BertNormalizer",
    "clean_text": true,
    "handle_chinese_chars": true,
    "strip_accents": null,
    "lowercase": true
  },
  "pre_tokenizer": {
    "type": "BertPreTokenizer"
  },
  "post_processor": {
    "type": "TemplateProcessing",
    "single": [
      {
        "SpecialToken": {
          "id": "[CLS]",
          "type_id": 0
        }
      },
      {
        "Sequence": {
          "id": "A",
          "type_id": 0
        }
      },
      {
        "SpecialToken": {
          "id": "[SEP]",
          "type_id": 0
        }
      }
    ],
    "pair": [
      {
        "Sequence": {
          "id": "A",
          "type_id": 0
        }
      },
      {
        "Sequence": {
          "id": "B",
          "type_id": 1
        }
      }
    ],
    "special_tokens": {
      "[CLS]": {
        "id": "[CLS]",
        "ids": [2],
        "tokens": ["[CLS]"]
      },
      "[SEP]": {
        "id": "[SEP]",
        "ids": [3],
        "tokens": ["[SEP]"]
      }
    }
  },
  "decoder": null,
  "model": {
    "type": "WordPiece",
    "unk_token": "[UNK]",
    "continuing_subword_prefix": "##",
    "max_input_chars_per_word": 100,
    "vocab": {
      "[PAD]": 0,
      "[UNK]": 1,
      "[CLS]": 2,
      "[SEP]": 3,
      "[MASK]": 4,
      "!": 5,
      "\"": 6,
      "$": 7,
      "&": 8,
      "'": 9,
      "(": 10,
      ")": 11,
      "*": 12,
      "+": 13,
      ",": 14,
      "-": 15,
      ".": 16,
      "/": 17,
      "0": 18,
      "1": 19,
      "2": 20,
      "3": 21,
      "4": 22,
      "5": 23,
      "6": 24,
      "7": 25,
      "8": 26,
      "9": 27,
      ":": 28,
      ";": 29,
      "<": 30,
      "=": 31,
      ">": 32,
      "?": 33,
      "[": 34,
      "]": 35,
      "^": 36,
      "_": 37,
      "`": 38,
      "a": 39,
      "b": 40,
      "c": 41,
      "d": 42,
      "e": 43,
      "f": 44,
      "g": 45,
      "h": 46,
      "i": 47,
      "j": 48,
      "k": 49,
      "l": 50,
      "m": 51,
      "n": 52,
      "o": 53,
      "p": 54,
      "q": 55,
      "r": 56,
      "s": 57,
      "t": 58,
      "u": 59,
      "v": 60,
      "w": 61,
      "x": 62,
      "y": 63,
      "z": 64,
      "{": 65,
      "|": 66,
      "}": 67,
      "の": 68,
      "キ": 69,
      "ス": 70,
      "テ": 71,
      "ト": 72,
      "世": 73,
      "你": 74,
      "好": 75,
      "日": 76,
      "本": 77,
      "界": 78,
      "語": 79,
      "##h": 80,
      "##r": 81,
      "##o": 82,
      "##w": 83,
      "##i": 84,
      "##f": 85,
      "##e": 86,
      "##x": 87,
      "##p": 88,
      "##d": 89,
      "##c": 90,
      "##s": 91,
      "##t": 92,
      "##m": 93,
      "##u": 94,
      "##l": 95,
      "##n": 96,
      "##a": 97,
      "##y": 98,
      "##k": 99,
      "##g": 100,
      "##z": 101,
      "##j": 102,
      "##b": 103,
      "##q": 104,
      "##v": 105,
      "##2": 106,
      "##0": 107,
      "##テ": 108,
      "##キ": 109,
      "##ス": 110,
      "##ト": 111,
      "##3": 112,
      "##9": 113,
      "##6": 114,
      "##4": 115,
      "##or": 116,
      "##on": 117,
      "##er": 118,
      "##in": 119,
      "##ed": 120,
      "##ror": 121,
      "##al": 122,
      "re": 123,
      "##st": 124,
      "##ur": 125,
      "th": 126,
      "##at": 127,
      "##ct": 128,
      "con": 129,
      "##xp": 130,
      "##ad": 131,
      "##error": 132,
      "##se": 133,
      "##ect": 134,
      "exp": 135,
      "##en": 136,
      "##it": 137,
      "de": 138,
      "in": 139,
      "to": 140,
      "##ion": 141,
      "##ro": 142,
      "##ag": 143,
      "##od": 144,
      "##im": 145,
      "##ing": 146,
      "##il": 147,
      "ca": 148,
      "##ex": 149,
      "##ort": 150,
      "const": 151,
      "expect": 152,
      "##ar": 153,
      "##es": 154,
      "er": 155,
      "un": 156,
      "error": 157,
      "##ation": 158,
      "cod": 159,
      "##ut": 160,
      "##ail": 161,
      "##ine": 162,
      "st": 163,
      "##ig": 164,
      "##use": 165,
      "##line": 166,
      "##adline": 167,
      "deadline": 168,
      "##ailur": 169,
      "##ce": 170,
      "##ext": 171,
      "op": 172,
      "##um": 173,
      "##an": 174,
      "##row": 175,
      "##ue": 176,
      "the": 177,
      "##son": 178,
      "##ly": 179,
      "ne": 180,
      "tim": 181,
      "##ring": 182,
      "read": 183,
      "cause": 184,
      "##ign": 185,
      "cont": 186,
      "failur": 187,
      "##eration": 188,
      "##ali": 189,
      "operation": 190,
      "##only": 191,
      "##alue": 192,
      "string": 193,
      "readonly": 194,
      "##urn": 195,
      "##ent": 196,
      "##ignal": 197,
      "ret": 198,
      "time": 199,
      "return": 200,
      "##out": 201,
      "##be": 202,
      "##ir": 203,
      "context": 204,
      "te": 205,
      "##is": 206,
      "##un": 207,
      "test": 208,
      "##ol": 209,
      "inv": 210,
      "new": 211,
      "an": 212,
      "throw": 213,
      "value": 214,
      "##th": 215,
      "##ms": 216,
      "##ll": 217,
      "signal": 218,
      "##bort": 219,
      "##erag": 220,
      "##eragerror": 221,
      "as": 222,
      "##age": 223,
      "code": 224,
      "##ef": 225,
      "##ch": 226,
      "timeout": 227,
      "##am": 228,
      "failure": 229,
      "is": 230,
      "su": 231,
      "##ument": 232,
      "se": 233,
      "this": 234,
      "##imit": 235,
      "json": 236,
      "##ri": 237,
      "##gument": 238,
      "##ined": 239,
      "of": 240,
      "wh": 241,
      "##ow": 242,
      "##ver": 243,
      "codelenserror": 244,
      "timeoutms": 245,
      "##ederror": 246,
      "tobe": 247,
      "abort": 248,
      "num": 249,
      "nam": 250,
      "##re": 251,
      "##iv": 252,
      "##as": 253,
      "##ain": 254,
      "##ber": 255,
      "##ore": 256,
      "und": 257,
      "##alid": 258,
      "invalid": 259,
      "##efined": 260,
      "number": 261,
      "limit": 262,
      "##em": 263,
      "##ped": 264,
      "##ject": 265,
      "##urs": 266,
      "export": 267,
      "init": 268,
      "and": 269,
      "seen": 270,
      "##sy": 271,
      "##eri": 272,
      "##rom": 273,
      "thrown": 274,
      "sub": 275,
      "undefined": 276,
      "##ursor": 277,
      "it": 278,
      "no": 279,
      "##et": 280,
      "##ul": 281,
      "##stem": 282,
      "##argument": 283,
      "##ess": 284,
      "##ance": 285,
      "invalidargument": 286,
      "##system": 287,
      "##eriali": 288,
      "subsystem": 289,
      "invalidargumenterror": 290,
      "if": 291,
      "seriali": 292,
      "ty": 293,
      "##ra": 294,
      "##of": 295,
      "name": 296,
      "##con": 297,
      "bu": 298,
      "cl": 299,
      "core": 300,
      "mess": 301,
      "##exp": 302,
      "##ds": 303,
      "##cri": 304,
      "##scri": 305,
      "##ate": 306,
      "descri": 307,
      "serializ": 308,
      "message": 309,
      "for": 310,
      "##ec": 311,
      "##eerror": 312,
      "##port": 313,
      "##cod": 314,
      "##le": 315,
      "##int": 316,
      "rea": 317,
      "##stance": 318,
      "##ass": 319,
      "##cont": 320,
      "##stanceof": 321,
      "from": 322,
      "##now": 323,
      "##know": 324,
      "##init": 325,
      "##all": 326,
      "res": 327,
      "##ction": 328,
      "##art": 329,
      "unknow": 330,
      "failures": 331,
      "##throw": 332,
      "##ult": 333,
      "describe": 334,
      "unknown": 335,
      "fun": 336,
      "ke": 337,
      "run": 338,
      "##yn": 339,
      "##get": 340,
      "##bject": 341,
      "##atch": 342,
      "errors": 343,
      "##ceed": 344,
      "##ired": 345,
      "function": 346,
      "call": 347,
      "hint": 348,
      "##if": 349,
      "##ian": 350,
      "##iol": 351,
      "##dget": 352,
      "that": 353,
      "##arian": 354,
      "##ive": 355,
      "not": 356,
      "budget": 357,
      "##ariant": 358,
      "ex": 359,
      "on": 360,
      "ts": 361,
      "wit": 362,
      "##json": 363,
      "tojson": 364,
      "##exceed": 365,
      "deadlineexceed": 366,
      "##ailureerror": 367,
      "invariant": 368,
      "caller": 369,
      "with": 370,
      "im": 371,
      "out": 372,
      "page": 373,
      "so": 374,
      "wra": 375,
      "##ic": 376,
      "##fa": 377,
      "##el": 378,
      "##pped": 379,
      "##cor": 380,
      "##ull": 381,
      "##ected": 382,
      "instanceof": 383,
      "case": 384,
      "unexp": 385,
      "typed": 386,
      "class": 387,
      "reason": 388,
      "##iolation": 389,
      "deadlineexceedederror": 390,
      "##cord": 391,
      "unexpected": 392,
      "lo": 393,
      "or": 394,
      "pag": 395,
      "##ru": 396,
      "##op": 397,
      "##ep": 398,
      "##signal": 399,
      "##ab": 400,
      "##ause": 401,
      "##gre": 402,
      "##violation": 403,
      "tothrow": 404,
      "can": 405,
      "asyn": 406,
      "abortsignal": 407,
      "invariantviolation": 408,
      "wrapped": 409,
      "##ruct": 410,
      "async": 411,
      "invariantviolationerror": 412,
      "ag": 413,
      "ch": 414,
      "non": 415,
      "object": 416,
      "tr": 417,
      "wor": 418,
      "##ise": 419,
      "##per": 420,
      "##ten": 421,
      "##ait": 422,
      "##abort": 423,
      "##yerror": 424,
      "##value": 425,
      "record": 426,
      "##roll": 427,
      "operationabort": 428,
      "##ird": 429,
      "##ole": 430,
      "jsonvalue": 431,
      "##ecursor": 432,
      "##codecursor": 433,
      "exten": 434,
      "import": 435,
      "##greg": 436,
      "aggreg": 437,
      "work": 438,
      "##roller": 439,
      "operationabortederror": 440,
      "extends": 441,
      "ar": 442,
      "cur": 443,
      "cursor": 444,
      "catch": 445,
      "fal": 446,
      "##rent": 447,
      "##os": 448,
      "##om": 449,
      "##failureerror": 450,
      "##pe": 451,
      "##us": 452,
      "##qu": 453,
      "reject": 454,
      "third": 455,
      "##set": 456,
      "defa": 457,
      "##ile": 458,
      "construct": 459,
      "errorinit": 460,
      "##olv": 461,
      "##thing": 462,
      "type": 463,
      "unexpectedfailureerror": 464,
      "##able": 465,
      "current": 466,
      "false": 467,
      "default": 468,
      "constructor": 469,
      "aw": 470,
      "all": 471,
      "by": 472,
      "cy": 473,
      "en": 474,
      "ever": 475,
      "null": 476,
      "we": 477,
      "##equ": 478,
      "##pt": 479,
      "##cl": 480,
      "##main": 481,
      "##ay": 482,
      "##ak": 483,
      "##inate": 484,
      "report": 485,
      "remain": 486,
      "expired": 487,
      "tocod": 488,
      "tocont": 489,
      "toequ": 490,
      "##ions": 491,
      "##ched": 492,
      "super": 493,
      "result": 494,
      "resolv": 495,
      "keep": 496,
      "paginate": 497,
      "chain": 498,
      "await": 499,
      "every": 500,
      "remaining": 501,
      "tocodelenserror": 502,
      "tocontain": 503,
      "toequal": 504,
      "10": 505,
      "are": 506,
      "bo": 507,
      "cut": 508,
      "ma": 509,
      "per": 510,
      "prom": 511,
      "text": 512,
      "##ron": 513,
      "##part": 514,
      "##cause": 515,
      "##ser": 516,
      "##match": 517,
      "##gth": 518,
      "##ength": 519,
      "decodecursor": 520,
      "tob": 521,
      "tomatch": 522,
      "errorcont": 523,
      "start": 524,
      "never": 525,
      "controller": 526,
      "stringif": 527,
      "##und": 528,
      "throwif": 529,
      "whole": 530,
      "aborted": 531,
      "numbers": 532,
      "##expired": 533,
      "true": 534,
      "argument": 535,
      "thirdpart": 536,
      "cycl": 537,
      "keeps": 538,
      "errorcontext": 539,
      "stringify": 540,
      "throwifexpired": 541,
      "thirdpartyerror": 542,
      "ab": 543,
      "be": 544,
      "bad": 545,
      "big": 546,
      "do": 547,
      "dur": 548,
      "fin": 549,
      "ow": 550,
      "par": 551,
      "pos": 552,
      "sam": 553,
      "say": 554,
      "##object": 555,
      "##ound": 556,
      "##id": 557,
      "##for": 558,
      "##ever": 559,
      "##pl": 560,
      "##ck": 561,
      "##low": 562,
      "##ase": 563,
      "##ere": 564,
      "##instanceof": 565,
      "rece": 566,
      "##ath": 567,
      "expir": 568,
      "##itive": 569,
      "int": 570,
      "unt": 571,
      "##cell": 572,
      "timer": 573,
      "signals": 574,
      "while": 575,
      "tobeinstanceof": 576,
      "##ived": 577,
      "its": 578,
      "reached": 579,
      "##inite": 580,
      "##throwable": 581,
      "describethrowable": 582,
      "##elimit": 583,
      "loop": 584,
      "cancell": 585,
      "aggregate": 586,
      "weak": 587,
      "resolvelimit": 588,
      "remainingms": 589,
      "map": 590,
      "promise": 591,
      "tomatchobject": 592,
      "started": 593,
      "cyclic": 594,
      "during": 595,
      "own": 596,
      "parse": 597,
      "positive": 598,
      "received": 599,
      "weakset": 600,
      "42": 601,
      "ad": 602,
      "al": 603,
      "cir": 604,
      "fore": 605,
      "has": 606,
      "length": 607,
      "next": 608,
      "nan": 609,
      "now": 610,
      "pa": 611,
      "pass": 612,
      "pus": 613,
      "path": 614,
      "rag": 615,
      "syn": 616,
      "wron": 617,
      "##ot": 618,
      "##ib": 619,
      "##ems": 620,
      "##dex": 621,
      "##cursor": 622,
      "##cul": 623,
      "##tn": 624,
      "##tions": 625,
      "##mat": 626,
      "##mance": 627,
      "##ug": 628,
      "##gat": 629,
      "##bound": 630,
      "##vent": 631,
      "##edcause": 632,
      "##string": 633,
      "##urce": 634,
      "thro": 635,
      "##atef": 636,
      "##enull": 637,
      "index": 638,
      "tostring": 639,
      "expected": 640,
      "unbound": 641,
      "codes": 642,
      "negat": 643,
      "##ish": 644,
      "##iss": 645,
      "any": 646,
      "asser": 647,
      "set": 648,
      "off": 649,
      "what": 650,
      "when": 651,
      "items": 652,
      "##ract": 653,
      "serializederror": 654,
      "serializeerror": 655,
      "serializedcause": 656,
      "format": 657,
      "##ecause": 658,
      "source": 659,
      "aggregatef": 660,
      "rejects": 661,
      "perfor": 662,
      "tobenull": 663,
      "finish": 664,
      "says": 665,
      "add": 666,
      "circul": 667,
      "foreign": 668,
      "nextcursor": 669,
      "push": 670,
      "wrong": 671,
      "##tnever": 672,
      "##ugh": 673,
      "through": 674,
      "unbounded": 675,
      "assertnever": 676,
      "aggregatefailureerror": 677,
      "performance": 678,
      "circular": 679,
      "bun": 680,
      "com": 681,
      "em": 682,
      "fir": 683,
      "fol": 684,
      "file": 685,
      "finite": 686,
      "let": 687,
      "mid": 688,
      "om": 689,
      "pri": 690,
      "sle": 691,
      "##ha": 692,
      "##ous": 693,
      "##sion": 694,
      "##ax": 695,
      "##bed": 696,
      "##bined": 697,
      "##vate": 698,
      "##00": 699
    }
  }
}
