{
  "version": "1.0",
  "truncation": null,
  "padding": null,
  "added_tokens": [
    {
      "id": 0,
      "content": "<s>",
      "single_word": false,
      "lstrip": false,
      "rstrip": false,
      "normalized": false,
      "special": true
    },
    {
      "id": 1,
      "content": "<pad>",
      "single_word": false,
      "lstrip": false,
      "rstrip": false,
      "normalized": false,
      "special": true
    },
    {
      "id": 2,
      "content": "</s>",
      "single_word": false,
      "lstrip": false,
      "rstrip": false,
      "normalized": false,
      "special": true
    },
    {
      "id": 3,
      "content": "<unk>",
      "single_word": false,
      "lstrip": false,
      "rstrip": false,
      "normalized": false,
      "special": true
    }
  ],
  "normalizer": {
    "type": "Sequence",
    "normalizers": [
      {
        "type": "NFKC"
      },
      {
        "type": "Replace",
        "pattern": {
          "Regex": " {2,}"
        },
        "content": " "
      }
    ]
  },
  "pre_tokenizer": {
    "type": "Metaspace",
    "replacement": "▁",
    "prepend_scheme": "always",
    "split": true
  },
  "post_processor": {
    "type": "TemplateProcessing",
    "single": [
      {
        "SpecialToken": {
          "id": "<s>",
          "type_id": 0
        }
      },
      {
        "Sequence": {
          "id": "A",
          "type_id": 0
        }
      },
      {
        "SpecialToken": {
          "id": "</s>",
          "type_id": 0
        }
      }
    ],
    "pair": [
      {
        "Sequence": {
          "id": "A",
          "type_id": 0
        }
      },
      {
        "Sequence": {
          "id": "B",
          "type_id": 1
        }
      }
    ],
    "special_tokens": {
      "</s>": {
        "id": "</s>",
        "ids": [2],
        "tokens": ["</s>"]
      },
      "<s>": {
        "id": "<s>",
        "ids": [0],
        "tokens": ["<s>"]
      }
    }
  },
  "decoder": null,
  "model": {
    "type": "Unigram",
    "unk_id": 3,
    "vocab": [
      ["<s>", 0.0],
      ["<pad>", 0.0],
      ["</s>", 0.0],
      ["<unk>", 0.0],
      ["▁", -2.3253466412284],
      [",", -3.315481051931976],
      [";", -3.491519503056277],
      ["s", -3.6286665618923912],
      [":", -3.8111256221570615],
      ["t", -3.854824210423468],
      [")", -3.921180325043254],
      [".", -3.9452997353350385],
      ["a", -4.089142964041137],
      ["▁{", -4.114887934865493],
      ["▁=", -4.151232307144493],
      ["'", -4.16621055703425],
      ["e", -4.200792641498633],
      ["▁}", -4.329999119239696],
      ["d", -4.36882924998914],
      ["(", -4.504871344229607],
      ["▁'", -4.5229198564503985],
      ["r", -4.595320049285088],
      ["p", -4.657231078664265],
      ["o", -4.662405783616156],
      ["▁a", -4.715101039094307],
      ["c", -4.77132755721512],
      ["▁const", -4.7748983794439885],
      ["m", -4.840510484082815],
      ["i", -4.861305754578909],
      ["u", -4.879811838614683],
      [">", -4.9066374292407735],
      ["it", -4.944403845293747],
      ["ed", -4.957007355791746],
      ["g", -5.00496077730559],
      ["▁r", -5.014097012943692],
      ["n", -5.025661793181363],
      ["re", -5.035802452771137],
      ["w", -5.07074414993304],
      ["h", -5.1464601214677765],
      ["l", -5.169218123011166],
      ["f", -5.245784562655179],
      ["▁(", -5.254550250651941],
      ["eadonly", -5.266008952963319],
      ["()", -5.306763767226438],
      ["▁})", -5.319855351437814],
      ["en", -5.356700377737806],
      ["b", -5.382018852096505],
      ["er", -5.3822634246000405],
      ["')", -5.394264333341761],
      ["y", -5.44018408424972],
      ["k", -5.44286078874652],
      ["le", -5.468382207331278],
      ["/", -5.508795581095746],
      ["or", -5.55748582069083],
      ["wa", -5.593526134105209],
      ["▁the", -5.620380261345358],
      ["al", -5.642943158356799],
      ["ort", -5.665580022544062],
      ["▁return", -5.690567705898408],
      ["in", -5.7295801399060435],
      ["]", -5.740577109784972],
      ["?", -5.748863101190665],
      ["▁expect(", -5.759211415907823],
      ["ar", -5.780021153640894],
      ["st", -5.821836628442517],
      ["T", -5.832330540363699],
      ["E", -5.832393773280597],
      ["v", -5.866410252775737],
      ["on", -5.8756957160914745],
      ["se", -5.88112507984788],
      ["if", -5.885670541402015],
      ["▁from", -5.89123507592529],
      ["▁c", -5.898828287362532],
      ["▁string", -5.898920416646062],
      ["ing", -5.9031788173140995],
      ["▁exp", -5.909181369411408],
      ["x", -5.91931920862457],
      ["▁ne", -5.923133949365507],
      ["-", -5.927396673688227],
      ["R", -5.932474264611108],
      ["A", -5.932474271523029],
      ["}", -5.94512345633715],
      ["S", -5.953689039106118],
      ["M", -5.953750842467383],
      ["`", -5.95487019743468],
      ["▁*/", -5.978210845674531],
      ["de", -5.996192570120944],
      ["/**", -5.9976823421863035],
      ["s:", -6.061985431719174],
      ["ou", -6.070770439599392],
      ["1", -6.088701532239015],
      ["▁is", -6.100583365698295],
      ["▁and", -6.121317089924225],
      ["ate", -6.161282514020376],
      ["ver", -6.1753432097665035],
      ["N", -6.195876855150997],
      ["P", -6.223630719316623],
      ["\"", -6.223656694233757],
      ["es", -6.231557578147767],
      ["▁[", -6.268177218055482],
      ["I", -6.281637212710658],
      ["C", -6.281639884598338],
      ["sync", -6.281658448021442],
      ["▁?", -6.298917732020167],
      ["===", -6.314981042003415],
      ["est", -6.323488490886597],
      ["▁import", -6.3431930291033165],
      ["\\", -6.368845115178054],
      ["▁number", -6.375450982821768],
      ["[]", -6.380037852540113],
      ["('", -6.413985158227454],
      ["un", -6.4193543183621635],
      [".ts'", -6.443796781123526],
      ["▁for", -6.444546795993246],
      ["${", -6.447258722317407],
      ["))", -6.448489488129838],
      ["\\n", -6.450336425050247],
      ["▁*", -6.452827878659917],
      ["▁name", -6.466895842306318],
      ["▁function", -6.479774413381115],
      ["▁undefined", -6.485047062328526],
      ["name", -6.491299143427545],
      ["])", -6.4918661621205285],
      ["[", -6.522086450554696],
      ["lo", -6.5293726213692675],
      ["O", -6.553404810265924],
      ["_", -6.554479935500305],
      ["grammar", -6.554479935659899],
      ["▁in", -6.568059309317566],
      ["▁to", -6.576537559964519],
      ["ri", -6.5784480505305325],
      ["▁0", -6.579381877108936],
      ["s.", -6.584064491932053],
      ["▁as", -6.597133375399418],
      ["ead", -6.625905294773415],
      ["▁type", -6.62854981562193],
      ["L", -6.6361466021574484],
      ["Error", -6.636147470309849],
      ["node", -6.636274325469415],
      ["index", -6.636331155612037],
      ["▁not", -6.655743212273613],
      ["▁model", -6.675722976688344],
      ["W", -6.6796225114897645],
      ["▁of", -6.683543341504173],
      ["}`", -6.68509072525352],
      ["to", -6.710153541751463],
      ["D", -6.725079259076574],
      ["▁with", -6.725101711575175],
      ["key", -6.725316356436553],
      ["om", -6.726453834125252],
      ["ll", -6.728920888881397],
      ["ut", -6.735656658601273],
      ["▁`", -6.74731418162234],
      ["path", -6.772955925729306],
      ["op", -6.788616279154072],
      ["▁test('", -6.790083808697741],
      ["root", -6.8000669167305805],
      ["interface", -6.822698456127869],
      ["▁tha", -6.822879421782806],
      ["▁file", -6.823090163716758],
      ["model", -6.827220416963809],
      ["text", -6.829211279343929],
      ["▁it", -6.841312800926241],
      ["ion", -6.842100689329153],
      ["ex", -6.847234025173009],
      ["▁${", -6.8669153871784685],
      ["▁re", -6.870609616040537],
      ["==", -6.87082059154069],
      ["#", -6.875316759280522],
      ["ir", -6.875328588026724],
      ["H", -6.8753300350575],
      ["line", -6.875591595473413],
      ["▁'./", -6.876299457691314],
      ["ation", -6.876810158546801],
      ["|", -6.885444667630011],
      ["▁|", -6.920303338741165],
      ["F", -6.9267566175920745],
      ["▁path", -6.930534138814475],
      ["2", -6.9308855905266995],
      ["▁source", -6.9335337301515665],
      ["▁p", -6.935494139224687],
      ["la", -6.944390330143743],
      ["channel", -6.946834418818204],
      ["0", -6.9524101839323045],
      ["parse", -6.990073893959725],
      ["▁...", -6.99047064251886],
      ["doc", -7.010669731441709],
      ["=", -7.013916912428369],
      ["ile", -7.037915974906198],
      ["query", -7.052209119714412],
      ["▁string)", -7.0534802380096835],
      ["▁b", -7.055090676384038],
      ["age", -7.059031097520775],
      ["({", -7.066088091010641],
      ["ld", -7.076477353451324],
      ["*", -7.092105466560705],
      ["▁be", -7.099194323910555],
      ["▁!", -7.107271682345597],
      ["<", -7.118577995692581],
      ["B", -7.118865066175677],
      ["▁throw", -7.118883521314373],
      ["find", -7.11915097632512],
      ["try", -7.120017043623919],
      ["▁by", -7.1257805327871555],
      ["s'", -7.133619871042516],
      ["▁symbol", -7.153846110419931],
      ["const", -7.165415632354295],
      ["▁test('a", -7.1654681489409136],
      ["▁{}", -7.174686501739981],
      ["vector", -7.190315829995464],
      ["ect", -7.203819132284746],
      ["not", -7.206960416291835],
      ["▁this.#", -7.267112766469121],
      ["transformer", -7.267227435043211],
      ["▁value", -7.267227600580216],
      ["spec", -7.267241937749961],
      ["load", -7.267731758550241],
      [".id", -7.270015505386172],
      ["▁`${", -7.270645576590329],
      ["expect", -7.278872339620296],
      ["▁id", -7.29371099017161],
      ["il", -7.305552969844079],
      ["card", -7.348300442563927],
      ["G", -7.35056076721804],
      [".toEqual([", -7.35056076902802],
      ["limit", -7.350564794811811],
      [".md'", -7.350609771098787],
      [".map((", -7.351031508226087],
      ["▁this", -7.387294947162488],
      [").toBe(", -7.4250731478943255],
      ["▁do", -7.42744771766843],
      ["source", -7.437074139202066],
      ["install", -7.440650926169951],
      ["core", -7.4413412408470245],
      ["z", -7.4414695165690254],
      ["5", -7.441469859284309],
      ["&", -7.441469859286009],
      ["language", -7.441469859851926],
      ["catch", -7.441470816979306],
      ["body", -7.4414795712258375],
      ["attr", -7.441795523355012],
      ["▁whe", -7.443669415745893],
      ["pos", -7.4447744039182036],
      ["own", -7.445240253362556],
      ["▁cards", -7.446009435783105],
      [").toBe('", -7.458139702581375],
      ["symbols", -7.4903706301686555],
      ["ther", -7.495274223388369],
      ["options.", -7.500030355894521],
      ["length", -7.510932321545216],
      ["▁so", -7.52439493727179],
      ["Grammar", -7.541407835252548],
      ["@", -7.54146985887599],
      ["6", -7.541469859284902],
      ["3", -7.54146985928678],
      ["▁budget", -7.541469859814621],
      ["Source", -7.5414698741926784],
      ["Tokens", -7.541469877144618],
      ["▁search", -7.5414699599780946],
      ["match", -7.541470122180176],
      ["egistry", -7.541470419793113],
      ["cache", -7.541470530410676],
      ["true", -7.541515394733752],
      ["lic", -7.542171650629804],
      ["code", -7.542664273402584],
      ["part", -7.543332918372412],
      ["For", -7.5491154921525485],
      ["▁string[]", -7.550916222140932],
      ["--", -7.554266350329353],
      ["!", -7.5594354388443765],
      ["▁sh", -7.566659047475146],
      ["{", -7.647969852522756],
      ["config", -7.652574035496686],
      ["embed", -7.652580856432159],
      ["▁Promise<", -7.652581038570988],
      ["npmPackage", -7.6525810631384275],
      ["json", -7.652651781124108],
      ["resolv", -7.6527176521964595],
      ["rows", -7.652839826628458],
      ["▁cont", -7.65304241280076],
      ["unknown", -7.653540506035327],
      ["igh", -7.655099161644947],
      ["type", -7.673926381386769],
      ["eta", -7.7596110395729845],
      [".push(", -7.775400914829261],
      ["j", -7.777497354400316],
      ["U", -7.7775809704094705],
      ["▁Float32Array", -7.777580970409472],
      ["quarantined", -7.777580970409473],
      ["boolean", -7.777580971479612],
      ["▁result", -7.77758111305659],
      ["Index", -7.7775816087071075],
      ["retrieve", -7.777583736408012],
      ["▁class", -7.777588150129895],
      ["▁failure", -7.777613415697015],
      ["▁...init", -7.777637231683297],
      ["▁start", -7.777641769003682],
      ["version", -7.777734084393719],
      ["exten", -7.777866747108845],
      ["▁The", -7.778025578046272],
      ["<string", -7.778156246320765],
      ["▁score", -7.781401946798395],
      ["▁test", -7.785621894963034],
      ["▁found", -7.920414889466542],
      ["tokenizer", -7.920438111913919],
      ["4", -7.920438113077213],
      ["Transformer", -7.9204381132666155],
      ["typescript", -7.920438113727075],
      ["Config", -7.920438117580191],
      ["Options", -7.920438137294181],
      ["ignore", -7.920438563360642],
      ["batch", -7.92043860164263],
      ["Sync", -7.920439940111201],
      ["Name", -7.920449581911163],
      ["▁embedder", -7.920449586427805],
      ["Inva", -7.920449596574443],
      [".get(", -7.920449864755458],
      ["▁false", -7.920455962611844],
      ["hash", -7.920480962403221],
      ["▁report", -7.920623995758893],
      ["▁can", -7.92157185635714],
      ["case", -7.926065070123556],
      ["▁stat", -8.004500246127222],
      ["his.", -8.01478059621597],
      ["child", -8.08316925401133],
      [").toContain('", -8.087104779933282],
      ["Y", -8.087104779933286],
      [".toBeInstanceOf(", -8.08710477993329],
      ["maxDepth", -8.087104779933306],
      ["Channel", -8.087104779935446],
      ["Symbol", -8.087104780008849],
      ["structur", -8.087104780042552],
      ["Project", -8.087104780138821],
      ["Json", -8.08710478030232],
      ["default", -8.087104780632153],
      ["xtracted", -8.087104780891769],
      ["process", -8.087104787626831],
      ["pattern", -8.08710479141592],
      ["▁maxTokens", -8.087104843155176],
      ["▁before", -8.087106653570615],
      ["space", -8.087108106950197],
      ["void", -8.087113933825034],
      ["▁SyntaxRuntime", -8.087114238487047],
      ["depth", -8.087115529411296],
      ["offset", -8.087118561941107],
      ["ample", -8.087124290515316],
      ["back", -8.087130677784362],
      ["cause", -8.087144128088873],
      ["▁context", -8.087183260242645],
      ["▁installGrammar", -8.087211728008327],
      ["Sub", -8.087422187059332],
      ["each", -8.08746223138843],
      ["▁store", -8.087689303669444],
      ["how", -8.09528928911752],
      ["▁options", -8.162842800230012],
      ["thing", -8.259451185459643],
      ["utras/code-lens-", -8.269283240980114],
      ["(failure)", -8.28480121999235],
      ["known", -8.285372327113965],
      ["▁fail", -8.28708921858962],
      ["V", -8.287104624826311],
      ["Tokenizer", -8.287104779856623],
      ["9", -8.287104779933285],
      ["tree-sitter", -8.287104779933756],
      ["Directory(", -8.287104779962066],
      ["----------------", -8.287104779973237],
      [").toHaveLength(", -8.287104779973241],
      ["caffold", -8.287104780081188],
      ["problem", -8.28710478107282],
      [".join('", -8.287104783489966],
      ["Install", -8.287104787696322],
      ["Record", -8.287104852198643],
      ["system", -8.287104991263638],
      ["▁Token", -8.287105027699281],
      ["▁Deadline", -8.287105491006338],
      ["message", -8.287106678980141],
      [".context", -8.287106987471798],
      ["Import", -8.28710699179652],
      ["▁trust", -8.287107158800634],
      ["▁mapping", -8.287108831334963],
      ["▁join", -8.287110232154939],
      ["▁both", -8.287111560578957],
      ["▁make", -8.287111968102426],
      ["xpression", -8.287114063693094],
      ["parent", -8.287125647037966],
      ["place", -8.287155397985273],
      ["▁kind", -8.287180261101753],
      ["Store", -8.287344426631654],
      ["Failure", -8.287355399867948],
      ["(text)", -8.288766486561304],
      ["▁expect(failure", -8.289413637491728],
      ["hildren", -8.291934790105822],
      ["Syntax", -8.537089969564919],
      ["Equal", -8.537104777846498],
      ["lidArgumentError", -8.537104779933284],
      ["parsed.values.", -8.537104779933284],
      ["▁character", -8.537104779938748],
      ["Language", -8.537104779968567],
      ["occurrences", -8.537104779973237],
      ["▁'third-party'", -8.537104779973243],
      ["Environment", -8.537104779973243],
      [".code-lens", -8.537104780275111],
      ["▁1024", -8.537104780357247],
      ["unigram", -8.537104780577497],
      ["command", -8.537104781144897],
      ["▁drafts", -8.537104783234634],
      ["▁SyntaxNode", -8.537104785532629],
      ["produc", -8.537104787466985],
      ["applied", -8.537104793884755],
      ["Set<string>", -8.53710479441352],
      ["bodyKind", -8.537104799514218],
      ["ntrusted", -8.537104820120987],
      ["package", -8.537104823971008],
      ["imension", -8.537104828654977],
      ["change", -8.53710483584864],
      ["options.deadline", -8.537104842940128],
      ["emplate", -8.537104857241896],
      ["member", -8.537104896949161],
      ["▁baseName", -8.537104930182059],
      ["▁cursor", -8.537104940397814],
      ["Version", -8.537104978872335],
      ["fetch", -8.537105242042047],
      ["empty", -8.537105364422278],
      ["▁'node:fs", -8.5371053663764],
      ["▁truth", -8.53710572576114],
      ["dapter", -8.537105904776894],
      ["romise", -8.537106662117042],
      ["▁pending", -8.53710667784332],
      ["label", -8.537107187042574],
      ["field", -8.537107975663533],
      ["String", -8.537113354643047],
      ["Path", -8.537127590441093],
      ["errors", -8.537132652364322],
      ["▁after", -8.537137607214113],
      ["${site.", -8.537145119212068],
      ["render", -8.537148505792189],
      ["▁allow", -8.537378254670028],
      ["file.path", -8.537462467675303],
      ["qualifier", -8.579719226850312],
      ["+", -8.765278835738672],
      ["diagnose", -8.769116354323337],
      ["▁qualifie", -8.81398349101508],
      ["▁descri", -8.870367913805374],
      ["Runtime", -8.870417512938351],
      ["K", -8.870438086060064],
      ["▁writeFileSync", -8.870438113266617],
      ["projectDir", -8.87043811326662],
      ["Queries", -8.870438113266625],
      ["▁JSON", -8.870438113266626],
      ["▁normalize", -8.870438113266657],
      ["▁CompiledMapping", -8.870438113266658],
      ["CodeLensError", -8.870438113266701],
      ["quote", -8.870438113270676],
      ["▁mkdtemp", -8.870438113274897],
      ["DisposedError", -8.870438113278006],
      ["javascript", -8.870438113306568],
      ["▁Structural", -8.870438113306573],
      ["docs/guide.md'", -8.870438113306575],
      ["▁Number.", -8.870438113308635],
      ["includes(", -8.870438113339201],
      [".search('", -8.870438113419137],
      ["izerInvalidError", -8.870438113474806],
      ["Embedder", -8.870438113815991],
      ["Network", -8.870438113833572],
      ["▁constructor(", -8.870438113890293],
      ["directory", -8.870438114835563],
      ["▁code-lens", -8.870438114913028],
      ["query.steps", -8.87043811516909],
      ["▁tokenizerFrom", -8.870438116867781],
      ["▁document", -8.870438118017644],
      ["▁Search", -8.870438118319647],
      ["wrapped", -8.870438118777107],
      ["method", -8.87043812614411],
      ["corrupt", -8.870438126779025],
      ["Cache(", -8.870438140748039],
      ["▁pieces", -8.870438156206168],
      ["[0]?.", -8.870438166232256],
      ["dentifier", -8.870438168738625],
      ["▁table(", -8.870438173566157],
      ["▁readFile", -8.870438196926665],
      ["accept", -8.870438197649266],
      ["Mapping", -8.870438201741102],
      ["▁probe", -8.870438216001132],
      ["Batch", -8.87043822758022],
      ["▁refused", -8.870438254487159],
      ["pipeline", -8.87043826687518],
      ["signal", -8.87043838022794],
      ["update.", -8.870438427072493],
      ["(join(", -8.87043845101631],
      ["▁cosine", -8.870438474882102],
      ["Match", -8.870438479790343],
      ["/class", -8.870438486226375],
      ["Operation", -8.870438671924544],
      ["s.lock", -8.870439007832722],
      ["(inputFile('", -8.87046105980501],
      ["(current", -8.876933649848803],
      ["throwIfExpired(`", -9.000820999923645],
      [".throwIfExpired(", -9.187892041397136],
      ["function'", -9.356472003227095],
      ["inputFile('src/", -9.370400701185073],
      ["▁inputFile('", -9.370438054444874],
      ["callableTags", -9.370438113266617],
      ["▁parseWql(", -9.370438113266617],
      ["parseWql('", -9.370438113266617],
      ["Uint8Array", -9.37043811326662],
      [")).toThrow(", -9.37043811326662],
      ["'transform'", -9.37043811326662],
      ["%", -9.370438113266625],
      ["▁WqlConstraint", -9.370438113266625],
      ["result.removed", -9.370438113266625],
      ["search.items[0].", -9.370438113266625],
      ["//class[@name=\"", -9.370438113266625],
      [").toBeLessThan", -9.370438113266625],
      [".remainingMs()", -9.370438113266625],
      ["//a[@x=", -9.370438113266625],
      [".screen(cardOf(", -9.370438113266628],
      ["Z", -9.370438113266633],
      ["paragraphs", -9.370438113266635],
      ["▁'descendant", -9.370438113266637],
      ["▁DEFAULT_RRF_K", -9.370438113266639],
      ["backend.batches)", -9.37043811326671],
      ["▁grapheme", -9.370438113266767],
      ["▁TruthSymbol[]", -9.370438113266797],
      ["packCards", -9.370438113266887],
      ["Source(update('", -9.370438113266909],
      ["sanitize'", -9.370438113266935],
      ["Literal(first)", -9.370438113266944],
      ["normalized", -9.370438113266989],
      ["environment", -9.370438113267173],
      ["▁centroidOf", -9.370438113267184],
      ["Iterable<", -9.370438113267346],
      [".replace(/^", -9.370438113267348],
      ["MemoryMb", -9.37043811326755],
      ["▁f.ruleId", -9.370438113267749],
      ["▁instruction", -9.37043811326801],
      [".padEnd(", -9.370438113268142],
      ["Inner.run", -9.37043811326843],
      ["▁Default", -9.370438113268568],
      ["▁'syntax'", -9.370438113268593],
      ["signature", -9.370438113268865],
      ["validateMapping(", -9.37043811327071],
      ["et(edge.to", -9.370438113271378],
      ["sha256", -9.370438113278118],
      ["https://", -9.370438113284175],
      [".filter((", -9.37043811329889],
      ["ormalizer", -9.370438113303027],
      ["model.vocab", -9.370438113304226],
      ["▁attrs.set(ATTR.", -9.370438113306571],
      ["ntViolationError", -9.370438113306571],
      ["X", -9.370438113306577],
      ["~", -9.370438113306577],
      ["OSITIVE_INFINITY", -9.370438113306577],
      ["Number.isFinite(", -9.370438113306577],
      ["cyrillicA}ssword", -9.370438113306577],
      ["sult.dependents.", -9.370438113306577],
      ["▁QuarantinedCard", -9.370438113306577],
      ["recallResolved", -9.370438113306577],
      ["}\\u0000${", -9.370438113306577],
      ["▁InferenceError(", -9.370438113306577],
      [".attrs.get(ATTR.", -9.370438113306577],
      ["Math.round(", -9.370438113306577],
      ["splitToFit(", -9.370438113306577],
      ["resolution.ids.", -9.370438113306577],
      [".forEach((", -9.370438113306577],
      ["IntegrityError", -9.370438113306577],
      ["_OFFSET", -9.370438113306577],
      ["ate.screenBatch(", -9.370438113306577],
      ["▁WqlSpec", -9.370438113306577],
      ["▁JsonValue", -9.37043811331272],
      ["d.indexOf('.'", -9.370438113314616],
      ["compatib", -9.37043811331564],
      ["ache.find(spec))", -9.370438113317949],
      ["▁targetOf(", -9.370438113319123],
      ["▁Object.", -9.370438113324955],
      ["▁isLiteral(", -9.37043811333033],
      ["(text.indexOf('\"", -9.370438113339633],
      ["definition.", -9.370438113373663],
      ["choice.", -9.370438113617126],
      ["(syntax", -9.37043811365961],
      ["▁source('flat'", -9.370438113711794],
      ["erialize", -9.370438117664783],
      ["${thrown.", -9.370438164289972],
      ["importedBy.", -9.370438181401923],
      ["candidate", -9.370438188026407],
      ["ttribute", -9.370439247944452],
      ["ocabulary", -9.37044028810416],
      ["src/config.ts'", -9.370476438171705],
      ["foundBy", -9.370538155239508],
      ["code-lens-syntax", -9.424213110252998],
      ["▁diagnos", -9.561025519857399],
      ["(resolveF", -10.36858114680209],
      ["J", -10.370038113306574],
      ["Q", -10.370138113306576],
      ["$", -10.370238113306575],
      ["7", -10.370338113306575],
      ["^", -10.370438113304823],
      ["DEFAULT_R", -10.370438113306491],
      ["8", -10.370438113306575],
      ["q", -10.370438113306575],
      ["ε", -10.370438113306575]
    ],
    "byte_fallback": false
  }
}
